#pragma once

#ifdef __has_attribute
#define HAVE_ATTRIBUTE(x) __has_attribute(x)
#else
#define HAVE_ATTRIBUTE(x) 0
#endif
#if HAVE_ATTRIBUTE(aligned) || (defined(__GNUC__) && !defined(__clang__))
#define DATA_ALIGN_ATTRIBUTE __attribute__((aligned(4)))
#else
#define DATA_ALIGN_ATTRIBUTE
#endif

// automatically configure network
#define TF_NUM_INPUTS 1
#define TF_NUM_OUTPUTS 1
#define TF_NUM_OPS 1
#define TF_OP_FULLYCONNECTED




// sample data
float x0[1] = {0.50287236924f};


/** model size = 5188 bytes **/
const unsigned char tempPredictor[] DATA_ALIGN_ATTRIBUTE = { 0x1c, 0x00, 0x00, 0x00, 0x54, 0x46, 0x4c, 0x33, 0x14, 0x00, 0x20, 0x00, 0x1c, 0x00, 0x18, 0x00, 0x14, 0x00, 0x10, 0x00, 0x0c, 0x00, 0x00, 0x00, 0x08, 0x00, 0x04, 0x00, 0x14, 0x00, 0x00, 0x00, 0x1c, 0x00, 0x00, 0x00, 0x98, 0x00, 0x00, 0x00, 0xf0, 0x00, 0x00, 0x00, 0xbc, 0x0d, 0x00, 0x00, 0xcc, 0x0d, 0x00, 0x00, 0xf0, 0x13, 0x00, 0x00, 0x03, 0x00, 0x00, 0x00, 0x01, 0x00, 0x00, 0x00, 0x10, 0x00, 0x00, 0x00, 0x00, 0x00, 0x0a, 0x00, 0x10, 0x00, 0x0c, 0x00, 0x08, 0x00, 0x04, 0x00, 0x0a, 0x00, 0x00, 0x00, 0x0c, 0x00, 0x00, 0x00, 0x1c, 0x00, 0x00, 0x00, 0x3c, 0x00, 0x00, 0x00, 0x0f, 0x00, 0x00, 0x00, 0x73, 0x65, 0x72, 0x76, 0x69, 0x6e, 0x67, 0x5f, 0x64, 0x65, 0x66, 0x61, 0x75, 0x6c, 0x74, 0x00, 0x01, 0x00, 0x00, 0x00, 0x04, 0x00, 0x00, 0x00, 0x90, 0xff, 0xff, 0xff, 0x0c, 0x00, 0x00, 0x00, 0x04, 0x00, 0x00, 0x00, 0x08, 0x00, 0x00, 0x00, 0x6f, 0x75, 0x74, 0x70, 0x75, 0x74, 0x5f, 0x30, 0x00, 0x00, 0x00, 0x00, 0x01, 0x00, 0x00, 0x00, 0x04, 0x00, 0x00, 0x00, 0xf2, 0xf2, 0xff, 0xff, 0x04, 0x00, 0x00, 0x00, 0x0c, 0x00, 0x00, 0x00, 0x6b, 0x65, 0x72, 0x61, 0x73, 0x5f, 0x74, 0x65, 0x6e, 0x73, 0x6f, 0x72, 0x00, 0x00, 0x00, 0x00, 0x02, 0x00, 0x00, 0x00, 0x34, 0x00, 0x00, 0x00, 0x04, 0x00, 0x00, 0x00, 0xdc, 0xff, 0xff, 0xff, 0x0f, 0x00, 0x00, 0x00, 0x04, 0x00, 0x00, 0x00, 0x13, 0x00, 0x00, 0x00, 0x43, 0x4f, 0x4e, 0x56, 0x45, 0x52, 0x53, 0x49, 0x4f, 0x4e, 0x5f, 0x4d, 0x45, 0x54, 0x41, 0x44, 0x41, 0x54, 0x41, 0x00, 0x08, 0x00, 0x0c, 0x00, 0x08, 0x00, 0x04, 0x00, 0x08, 0x00, 0x00, 0x00, 0x0e, 0x00, 0x00, 0x00, 0x04, 0x00, 0x00, 0x00, 0x13, 0x00, 0x00, 0x00, 0x6d, 0x69, 0x6e, 0x5f, 0x72, 0x75, 0x6e, 0x74, 0x69, 0x6d, 0x65, 0x5f, 0x76, 0x65, 0x72, 0x73, 0x69, 0x6f, 0x6e, 0x00, 0x10, 0x00, 0x00, 0x00, 0xc8, 0x0c, 0x00, 0x00, 0xc0, 0x0c, 0x00, 0x00, 0x90, 0x0c, 0x00, 0x00, 0x38, 0x0c, 0x00, 0x00, 0x24, 0x0c, 0x00, 0x00, 0xf4, 0x0b, 0x00, 0x00, 0xe4, 0x09, 0x00, 0x00, 0xd4, 0x01, 0x00, 0x00, 0x44, 0x01, 0x00, 0x00, 0xb4, 0x00, 0x00, 0x00, 0xac, 0x00, 0x00, 0x00, 0xa4, 0x00, 0x00, 0x00, 0x9c, 0x00, 0x00, 0x00, 0x94, 0x00, 0x00, 0x00, 0x74, 0x00, 0x00, 0x00, 0x04, 0x00, 0x00, 0x00, 0xae, 0xf3, 0xff, 0xff, 0x04, 0x00, 0x00, 0x00, 0x60, 0x00, 0x00, 0x00, 0x10, 0x00, 0x00, 0x00, 0x00, 0x00, 0x00, 0x00, 0x08, 0x00, 0x0e, 0x00, 0x08, 0x00, 0x04, 0x00, 0x08, 0x00, 0x00, 0x00, 0x10, 0x00, 0x00, 0x00, 0x24, 0x00, 0x00, 0x00, 0x00, 0x00, 0x06, 0x00, 0x08, 0x00, 0x04, 0x00, 0x06, 0x00, 0x00, 0x00, 0x04, 0x00, 0x00, 0x00, 0x00, 0x00, 0x00, 0x00, 0x0c, 0x00, 0x18, 0x00, 0x14, 0x00, 0x10, 0x00, 0x0c, 0x00, 0x04, 0x00, 0x0c, 0x00, 0x00, 0x00, 0x85, 0xbc, 0xb1, 0x72, 0x83, 0x34, 0x4f, 0x1f, 0x02, 0x00, 0x00, 0x00, 0x02, 0x00, 0x00, 0x00, 0x04, 0x00, 0x00, 0x00, 0x06, 0x00, 0x00, 0x00, 0x32, 0x2e, 0x32, 0x30, 0x2e, 0x30, 0x00, 0x00, 0x1a, 0xf4, 0xff, 0xff, 0x04, 0x00, 0x00, 0x00, 0x10, 0x00, 0x00, 0x00, 0x31, 0x2e, 0x35, 0x2e, 0x30, 0x00, 0x00, 0x00, 0x00, 0x00, 0x00, 0x00, 0x00, 0x00, 0x00, 0x00, 0xf8, 0xed, 0xff, 0xff, 0xfc, 0xed, 0xff, 0xff, 0x00, 0xee, 0xff, 0xff, 0x04, 0xee, 0xff, 0xff, 0x46, 0xf4, 0xff, 0xff, 0x04, 0x00, 0x00, 0x00, 0x80, 0x00, 0x00, 0x00, 0x00, 0x00, 0x00, 0x00, 0x00, 0x00, 0x00, 0x00, 0xa8, 0x05, 0x44, 0xbd, 0x59, 0x85, 0x53, 0xbd, 0xf1, 0x12, 0x7d, 0x3d, 0xcf, 0x29, 0x0c, 0x3d, 0xc8, 0xfd, 0x1a, 0xbd, 0x00, 0x00, 0x00, 0x00, 0x03, 0xd1, 0x78, 0xbd, 0x00, 0x00, 0x00, 0x00, 0xe4, 0x41, 0x98, 0x3c, 0x94, 0x49, 0x6b, 0xb9, 0xe6, 0x33, 0xa6, 0x3c, 0x66, 0xd0, 0x79, 0xbd, 0x00, 0x00, 0x00, 0x00, 0xcb, 0x35, 0x99, 0xbc, 0x5d, 0xbc, 0x3a, 0x3d, 0xd5, 0x10, 0x67, 0x3d, 0x00, 0x00, 0x00, 0x00, 0x00, 0x00, 0x00, 0x00, 0x00, 0x00, 0x00, 0x00, 0x00, 0x00, 0x00, 0x00, 0x8c, 0xe5, 0x2b, 0xbd, 0x06, 0x99, 0x80, 0x3c, 0x8a, 0x0a, 0x2c, 0xbd, 0x6a, 0xdb, 0x3d, 0xbd, 0xba, 0x32, 0x0c, 0x3d, 0x00, 0x00, 0x00, 0x00, 0x00, 0x00, 0x00, 0x00, 0x07, 0x78, 0x3f, 0x3c, 0xf6, 0x3b, 0xf6, 0x3d, 0x98, 0xd2, 0x95, 0x3d, 0xd2, 0xf4, 0xff, 0xff, 0x04, 0x00, 0x00, 0x00, 0x80, 0x00, 0x00, 0x00, 0xfa, 0x38, 0xb0, 0xbe, 0x62, 0xff, 0xa6, 0xbe, 0xe1, 0x8a, 0xb9, 0x3e, 0xe2, 0x07, 0xca, 0xbc, 0x28, 0xc4, 0x9a, 0x3e, 0x85, 0xf7, 0xf4, 0x3e, 0x03, 0x76, 0x1b, 0x3e, 0xf6, 0x93, 0x9a, 0xbe, 0xfa, 0xb9, 0x9f, 0x3e, 0x40, 0x96, 0x8f, 0xbd, 0x3a, 0x35, 0x54, 0x3e, 0xae, 0x28, 0xea, 0x3e, 0xb8, 0x90, 0xa4, 0x3e, 0xa4, 0x9a, 0xc2, 0xbb, 0xa6, 0x13, 0xc8, 0xbe, 0x0d, 0x90, 0xe8, 0x3e, 0xb1, 0x95, 0x50, 0x3e, 0x88, 0x44, 0x90, 0x3e, 0x08, 0x5c, 0x2a, 0xbd, 0x88, 0xbd, 0x9b, 0xbe, 0x36, 0x6a, 0x1d, 0xbe, 0x50, 0x2d, 0xc8, 0xbe, 0xfe, 0xe1, 0xc2, 0xbc, 0xda, 0xa9, 0x00, 0x3f, 0x9a, 0x81, 0x03, 0x3f, 0x64, 0xa2, 0x07, 0x3e, 0x2f, 0xa1, 0x40, 0x3e, 0x16, 0x31, 0x0a, 0xbe, 0xb0, 0xfb, 0x14, 0xbe, 0xa6, 0x7c, 0x9e, 0x3e, 0x4d, 0x22, 0xf7, 0x3d, 0x45, 0x81, 0x87, 0x3e, 0x5e, 0xf5, 0xff, 0xff, 0x04, 0x00, 0x00, 0x00, 0x00, 0x08, 0x00, 0x00, 0x12, 0xe5, 0x15, 0x3e, 0xc8, 0xe4, 0x27, 0x3d, 0x9d, 0xb2, 0x90, 0xbe, 0x18, 0x44, 0xfe, 0xbd, 0x6e, 0x0c, 0x72, 0xbe, 0xc3, 0x59, 0x9f, 0x3e, 0x43, 0xad, 0x86, 0xbb, 0x9e, 0x82, 0x7d, 0x3e, 0xc1, 0xee, 0x85, 0x3d, 0x36, 0xa0, 0x66, 0xbe, 0x19, 0xc0, 0x25, 0xbd, 0x28, 0xaf, 0x1d, 0x3d, 0xe9, 0xc4, 0x05, 0xbe, 0x70, 0x1d, 0xc5, 0xbc, 0x36, 0x58, 0x4b, 0x3e, 0xef, 0xf1, 0x61, 0xbc, 0x86, 0xe1, 0x43, 0x3e, 0x28, 0x83, 0x5f, 0xbe, 0x10, 0x03, 0xa9, 0xbd, 0xc7, 0xbe, 0xac, 0xbe, 0x8c, 0x3c, 0xb5, 0x3d, 0xf2, 0xd4, 0x50, 0x3e, 0xe9, 0xfa, 0x57, 0xbe, 0xce, 0x89, 0x01, 0xbe, 0x4f, 0xc8, 0x89, 0xbe, 0xe1, 0xd7, 0x0e, 0xbe, 0x9d, 0x2f, 0x95, 0xbe, 0xdc, 0x81, 0x60, 0xbe, 0x8c, 0xb5, 0x83, 0x3d, 0x69, 0xcb, 0x03, 0x3e, 0x70, 0x49, 0x24, 0x3e, 0x50, 0xb7, 0x30, 0x3e, 0x5a, 0x05, 0x88, 0xbe, 0x1c, 0xe1, 0xa5, 0xbe, 0xb8, 0xe2, 0xb3, 0x3d, 0x89, 0x60, 0x8a, 0x3e, 0x6e, 0x5e, 0x65, 0x3e, 0x00, 0x2a, 0x12, 0x3c, 0xa4, 0x39, 0xc5, 0x3d, 0xec, 0x7c, 0xee, 0xbd, 0x92, 0xce, 0x77, 0x3e, 0x7f, 0xba, 0x98, 0xbe, 0xda, 0xcc, 0x7e, 0x3e, 0x8a, 0x66, 0x38, 0x3e, 0x1c, 0xd8, 0x85, 0xbe, 0xc0, 0x23, 0x69, 0xbc, 0xd2, 0xde, 0x58, 0xbe, 0x6f, 0x6f, 0x03, 0xbe, 0xbe, 0x7c, 0x84, 0xbe, 0xfa, 0xeb, 0x53, 0x3e, 0x1a, 0x7c, 0x9d, 0xbe, 0xed, 0xc1, 0xa3, 0x3e, 0x0e, 0xb7, 0x59, 0x3e, 0x58, 0x02, 0x9b, 0xbd, 0x20, 0xf6, 0x35, 0xbc, 0x31, 0xa3, 0x81, 0x3e, 0x08, 0x7c, 0xb1, 0xbd, 0x5c, 0x95, 0x9d, 0xbe, 0x72, 0x0e, 0x0c, 0xbe, 0x14, 0x41, 0x97, 0xbd, 0xac, 0xc1, 0xf5, 0x3d, 0xbe, 0x20, 0x9d, 0xbe, 0xc2, 0x6e, 0xa1, 0xbe, 0x4b, 0x1d, 0xb0, 0xbe, 0x65, 0xaa, 0xa1, 0x3e, 0xfe, 0xd5, 0x38, 0x3e, 0x0a, 0x4c, 0x7f, 0xbc, 0x63, 0xd3, 0xf1, 0xbd, 0xa9, 0x6d, 0x2c, 0xbe, 0x45, 0x15, 0x0f, 0x3e, 0xe0, 0x16, 0x81, 0x3e, 0x9b, 0xb1, 0x48, 0xbe, 0xe3, 0x64, 0x0c, 0xbe, 0xbd, 0x91, 0x59, 0xbe, 0xcc, 0x07, 0xaf, 0xbe, 0x0b, 0x7c, 0x14, 0x3e, 0xf8, 0xb1, 0x63, 0xbe, 0x30, 0xd3, 0x1f, 0xbe, 0xf4, 0x7a, 0xb5, 0xbd, 0x71, 0x85, 0x9a, 0x3e, 0x57, 0xac, 0x3c, 0xbd, 0x29, 0x89, 0xd5, 0x3c, 0x6e, 0xee, 0x25, 0x3e, 0xc5, 0x4e, 0x21, 0xbe, 0xf8, 0xd2, 0xc9, 0x3d, 0x0d, 0x45, 0x96, 0x3e, 0x04, 0xa4, 0x4c, 0xbd, 0xdf, 0xa7, 0xba, 0xbe, 0xfa, 0x46, 0x81, 0x3d, 0x57, 0xf7, 0xb6, 0x3b, 0x12, 0xa7, 0xac, 0xbe, 0xde, 0x47, 0x49, 0x3e, 0xa1, 0x68, 0x92, 0x3e, 0x62, 0x14, 0x4c, 0xbd, 0x53, 0xbe, 0xa4, 0xbe, 0x07, 0xd0, 0xc6, 0x3d, 0x18, 0x24, 0x82, 0xbd, 0x12, 0x27, 0x38, 0x3e, 0x9c, 0xe0, 0x8c, 0x3e, 0xc2, 0x2a, 0x90, 0xbd, 0xf1, 0xb1, 0x63, 0x3e, 0x59, 0x58, 0xaf, 0xbe, 0xd7, 0x52, 0x80, 0x3d, 0xa5, 0x67, 0x37, 0xbe, 0x6e, 0x99, 0x97, 0x3e, 0x6f, 0x0a, 0x84, 0xbe, 0x32, 0x24, 0x90, 0x3b, 0xec, 0x7e, 0x34, 0xbd, 0xc7, 0x2d, 0x9b, 0xbe, 0x1a, 0x9e, 0xe9, 0xbd, 0x56, 0xcc, 0x18, 0x3e, 0x29, 0x73, 0x81, 0xbe, 0xb3, 0x45, 0x4b, 0xbe, 0xb0, 0xb0, 0x38, 0x3e, 0xe6, 0x09, 0xb1, 0xbe, 0x9a, 0xbf, 0x0b, 0xbe, 0x20, 0xa4, 0x8a, 0x3d, 0x56, 0xf7, 0x88, 0xbe, 0x8c, 0x08, 0x59, 0xbd, 0x93, 0x5d, 0x56, 0x3e, 0x6d, 0x83, 0x48, 0x3d, 0xff, 0x6b, 0xa7, 0x3d, 0xc7, 0x2f, 0x8f, 0xbd, 0xfe, 0x0a, 0x5c, 0x3e, 0x80, 0x02, 0x94, 0xbd, 0x50, 0x8e, 0xc1, 0xbe, 0x56, 0x99, 0xf8, 0xbd, 0x1c, 0x16, 0xc1, 0xbe, 0x40, 0x94, 0xbf, 0x3b, 0x14, 0x02, 0xa5, 0x3d, 0x4c, 0x79, 0xd1, 0xbd, 0xa7, 0x21, 0xaf, 0xbe, 0x8a, 0x88, 0x75, 0x3e, 0x70, 0x92, 0xf9, 0x3c, 0xba, 0x9c, 0x08, 0x3e, 0x13, 0x08, 0x85, 0x3e, 0xb8, 0xa9, 0xdd, 0xbd, 0xb8, 0x96, 0x52, 0x3d, 0xa0, 0x35, 0xfd, 0xbd, 0xf4, 0xae, 0xbc, 0xbd, 0x65, 0xb3, 0x61, 0xbe, 0x3e, 0x48, 0x4a, 0x3e, 0x07, 0xb9, 0x83, 0xbe, 0x56, 0x1b, 0x02, 0xbe, 0x0b, 0x7f, 0xa9, 0xbe, 0xce, 0x8f, 0x43, 0x3e, 0x74, 0x1b, 0x59, 0xbe, 0xa0, 0x7a, 0xb7, 0x3c, 0x60, 0xff, 0xd3, 0x3d, 0x3e, 0x0c, 0x31, 0x3e, 0x6f, 0x48, 0x97, 0x3e, 0x20, 0x4b, 0x95, 0x3c, 0x80, 0x56, 0x76, 0x3b, 0xe6, 0x63, 0x7a, 0x3e, 0x25, 0x64, 0x20, 0xbe, 0xba, 0x54, 0x83, 0xbe, 0x53, 0x43, 0xa5, 0xbe, 0x08, 0x2e, 0x7c, 0xbe, 0x82, 0xc3, 0x1e, 0x3e, 0xd0, 0x65, 0xb1, 0xbe, 0x62, 0x3d, 0x4e, 0x3e, 0xd2, 0xf7, 0x6b, 0x3e, 0xb7, 0xfa, 0x2b, 0x3c, 0x38, 0xcd, 0xf3, 0x3d, 0x27, 0x38, 0xad, 0x3e, 0xa1, 0xb7, 0x8c, 0x3e, 0x5c, 0x88, 0x53, 0x3e, 0xe4, 0xc0, 0xc6, 0xbd, 0xe5, 0xda, 0x43, 0xbe, 0x03, 0x63, 0x3e, 0xbe, 0x1b, 0xc9, 0x8b, 0xbc, 0x2f, 0xd8, 0x4f, 0x3e, 0x82, 0x4a, 0x5b, 0x3e, 0xc1, 0x8a, 0x8e, 0xbe, 0x20, 0xe7, 0x32, 0xbd, 0xf6, 0x17, 0x72, 0xbd, 0x6f, 0x09, 0xbd, 0x3d, 0x90, 0x48, 0x6d, 0x3e, 0xe8, 0xe3, 0x77, 0xbd, 0x52, 0xa6, 0xa9, 0xbe, 0xd9, 0x7e, 0xb1, 0xbe, 0x55, 0x3d, 0x00, 0xbe, 0x98, 0x54, 0x9f, 0xbe, 0x5e, 0x49, 0x8a, 0xbd, 0x54, 0xd5, 0x01, 0xbb, 0x3f, 0x87, 0x9c, 0xbe, 0xd1, 0x73, 0xc8, 0x3e, 0x10, 0x33, 0xbc, 0xbc, 0x15, 0x17, 0x22, 0xbe, 0xe7, 0xb8, 0x8b, 0xbe, 0xe3, 0xab, 0xb7, 0x3c, 0xfe, 0x6a, 0xc4, 0x3e, 0x50, 0xbc, 0x92, 0xbc, 0x87, 0x7a, 0x98, 0x3e, 0x8c, 0x1a, 0xe8, 0xbd, 0x0b, 0x77, 0x5e, 0xbe, 0xf3, 0xba, 0xbd, 0x3e, 0x59, 0xe4, 0x93, 0x3e, 0x90, 0xa5, 0x62, 0xbe, 0x68, 0x4a, 0xc9, 0xbd, 0x25, 0xba, 0xea, 0xbd, 0x58, 0x42, 0x8e, 0xbd, 0xc4, 0xb3, 0xc1, 0x3e, 0x63, 0x1f, 0xf0, 0xbd, 0x1a, 0x06, 0x09, 0x3d, 0xfb, 0x48, 0x59, 0xbd, 0xfd, 0x31, 0x56, 0xbe, 0x9d, 0x0a, 0xa0, 0x3d, 0xc6, 0x88, 0x99, 0x3e, 0xd3, 0xe0, 0x31, 0xbb, 0xe0, 0xf6, 0x72, 0x3d, 0xbc, 0xaa, 0xfa, 0x3d, 0xbb, 0xf8, 0x5e, 0xbe, 0x5d, 0x1d, 0x8d, 0x3e, 0xa6, 0xd4, 0x39, 0x3e, 0x18, 0xdb, 0x62, 0x3e, 0x2e, 0xf3, 0xb6, 0x3e, 0xce, 0x53, 0x34, 0x3e, 0xa8, 0x00, 0x85, 0x3e, 0x62, 0xeb, 0x7d, 0x3e, 0xbf, 0x15, 0xaa, 0xbe, 0x37, 0x6e, 0x23, 0xbe, 0xa5, 0xde, 0x16, 0xbe, 0x8c, 0xe7, 0x41, 0xbe, 0xf8, 0xa5, 0xc9, 0x3d, 0x79, 0xe1, 0xb2, 0x3e, 0xe2, 0x65, 0x60, 0x3e, 0x88, 0x6f, 0x94, 0xbe, 0x0c, 0x45, 0xbd, 0xbe, 0x63, 0xb2, 0x4e, 0x3e, 0x48, 0x21, 0x60, 0xbd, 0xd3, 0x3a, 0x3d, 0xbe, 0x0d, 0xa5, 0xa0, 0x3d, 0xd8, 0x4c, 0x24, 0x3d, 0x98, 0x5d, 0x19, 0x3e, 0x6f, 0x3d, 0x77, 0xbe, 0x6c, 0xec, 0x90, 0x3e, 0x83, 0x38, 0x45, 0x3e, 0x54, 0x2c, 0xe7, 0xbd, 0xb0, 0x6a, 0xc2, 0xbd, 0xf6, 0xbb, 0xb4, 0xbe, 0x61, 0xb4, 0x9f, 0xbe, 0x74, 0xb4, 0x96, 0xbd, 0x50, 0x12, 0xe5, 0xbd, 0x1c, 0xdf, 0xa9, 0x3d, 0x92, 0x57, 0x24, 0xbe, 0xf4, 0xad, 0x87, 0x3e, 0x1e, 0xa2, 0x15, 0x3e, 0x6a, 0x52, 0x99, 0x3e, 0x56, 0xa3, 0xc2, 0xbe, 0xf1, 0x64, 0xaf, 0x3d, 0x00, 0xb2, 0xca, 0x3a, 0x82, 0xf4, 0x7f, 0x3e, 0xc7, 0xe2, 0x0f, 0xbe, 0x9c, 0xec, 0xba, 0xbe, 0x61, 0x30, 0xc4, 0xbe, 0xde, 0x39, 0x58, 0x3e, 0x80, 0x0a, 0x73, 0xbe, 0xba, 0x13, 0x94, 0xbe, 0xc0, 0x46, 0x00, 0x3e, 0x64, 0xae, 0x37, 0x3e, 0x1d, 0x64, 0x9c, 0x3e, 0xb6, 0xeb, 0x6c, 0xbe, 0x94, 0xc6, 0x76, 0xbe, 0x5e, 0x7f, 0xd9, 0x3c, 0x70, 0xab, 0xaf, 0x3c, 0xe5, 0x7e, 0x6d, 0x3e, 0x5a, 0xbb, 0xaf, 0xbe, 0xbd, 0x81, 0x17, 0xbd, 0xdb, 0xbd, 0xab, 0xbe, 0x98, 0x5e, 0x7f, 0xbd, 0x32, 0xbf, 0xde, 0x3d, 0x07, 0xb4, 0x33, 0x3e, 0x7a, 0x5a, 0x61, 0x3e, 0xb1, 0x9d, 0x9a, 0x3e, 0xd2, 0x2a, 0x4c, 0x3e, 0x12, 0xfd, 0x5c, 0x3e, 0x67, 0xce, 0x8e, 0x3e, 0x5e, 0x3f, 0x31, 0x3e, 0xc6, 0x54, 0xab, 0x3e, 0x63, 0x11, 0x4b, 0xbd, 0xd7, 0x1d, 0xdb, 0x3d, 0x8e, 0xaf, 0xfd, 0x3d, 0x88, 0x65, 0xac, 0xbd, 0x10, 0x48, 0x13, 0x3e, 0xf8, 0xe2, 0x7f, 0x3e, 0x1a, 0x43, 0x8f, 0x3c, 0xa8, 0x90, 0xa2, 0xbe, 0x0c, 0xec, 0xca, 0xbd, 0x40, 0x50, 0x0e, 0xbc, 0x40, 0x10, 0x90, 0x3d, 0x92, 0x6a, 0x93, 0xbd, 0x9c, 0x5a, 0x60, 0x3d, 0xb6, 0xaa, 0xb1, 0x3d, 0x4a, 0x1e, 0x19, 0xbd, 0xd0, 0x7e, 0xf5, 0x3d, 0xdd, 0xe8, 0x47, 0xbe, 0x04, 0xd3, 0x04, 0x3e, 0x71, 0xd4, 0xbe, 0x3e, 0x3d, 0x83, 0xe3, 0x3d, 0xe4, 0xb7, 0xdb, 0x3e, 0x74, 0x74, 0x6d, 0xbe, 0xc3, 0xc3, 0xa8, 0x3e, 0xaf, 0xbb, 0x8a, 0x3e, 0xd2, 0x68, 0xbe, 0x3d, 0x73, 0x9c, 0xc0, 0x3e, 0xa1, 0x99, 0x9c, 0x3e, 0x34, 0x7c, 0x18, 0xbe, 0x10, 0x2b, 0xa3, 0xbe, 0x50, 0x05, 0xfc, 0x3d, 0xb0, 0x98, 0x12, 0xbe, 0x95, 0x9c, 0x36, 0x3e, 0xb8, 0x33, 0x66, 0x3e, 0x2a, 0x85, 0x0d, 0xbe, 0xf7, 0xe1, 0x95, 0x3e, 0xe1, 0x4a, 0x88, 0x3e, 0x24, 0x64, 0xec, 0x3d, 0xd9, 0x9c, 0xd3, 0x3e, 0x1e, 0xb6, 0xf4, 0x3d, 0xc5, 0x69, 0x96, 0x3e, 0x15, 0x31, 0xae, 0x3e, 0x32, 0x42, 0x58, 0xbe, 0x6a, 0x82, 0x75, 0xbe, 0xd0, 0xe8, 0x92, 0xbe, 0x19, 0xc4, 0xaf, 0xbe, 0x51, 0xe4, 0x21, 0x3e, 0xda, 0x6e, 0x60, 0x3e, 0x68, 0x09, 0xaa, 0xbd, 0x00, 0x91, 0xae, 0x3a, 0x3c, 0x3c, 0xdc, 0x3d, 0x45, 0x97, 0x7c, 0xbe, 0x2d, 0xb5, 0x58, 0xbe, 0x60, 0xeb, 0x00, 0x3e, 0xd2, 0x65, 0x30, 0x3e, 0x8c, 0xdf, 0xa9, 0x3d, 0x0b, 0x91, 0x38, 0x3d, 0x3a, 0xdf, 0x80, 0xbe, 0x41, 0xd8, 0xb2, 0xbe, 0x00, 0x0f, 0xdd, 0x3a, 0x1f, 0xfb, 0xa0, 0xbe, 0x83, 0x51, 0x85, 0x3e, 0x9c, 0x13, 0x2f, 0xbe, 0xa4, 0xca, 0x3b, 0xbe, 0xd7, 0x7d, 0x07, 0xbe, 0x88, 0x23, 0x2d, 0xbe, 0x38, 0xe2, 0x5a, 0xbd, 0x68, 0x9f, 0xad, 0xbd, 0x66, 0x07, 0x08, 0x3e, 0xce, 0x72, 0x49, 0x3e, 0x10, 0xcf, 0x72, 0xbd, 0x27, 0x1d, 0x9b, 0x3e, 0xa2, 0xc2, 0xa0, 0x3e, 0xb8, 0x8d, 0x57, 0x3d, 0xd0, 0x91, 0x75, 0xbe, 0xff, 0x77, 0x66, 0xbe, 0xf4, 0xb6, 0x1e, 0xbe, 0x1e, 0x47, 0x2d, 0xbd, 0x89, 0x15, 0x90, 0xbe, 0xb8, 0xf1, 0xf0, 0xbd, 0x6a, 0x4f, 0x5c, 0x3e, 0xf4, 0x9b, 0xe1, 0x3d, 0x63, 0x05, 0xb2, 0xbe, 0x8f, 0x42, 0xdd, 0x3d, 0xfe, 0x90, 0x72, 0xbe, 0x6a, 0xea, 0x02, 0xbe, 0x20, 0xa9, 0x3e, 0xbc, 0x2a, 0xe3, 0x70, 0x3e, 0x82, 0xfe, 0x7e, 0xbe, 0xe1, 0xe9, 0x77, 0xbc, 0x8e, 0x4c, 0x78, 0xbd, 0xdb, 0xce, 0x9d, 0xbe, 0x51, 0x25, 0xb0, 0xbe, 0xf8, 0x36, 0xcc, 0xbd, 0x05, 0xc8, 0x29, 0xbe, 0x30, 0x5c, 0x69, 0x3d, 0xd4, 0x00, 0xd7, 0xbd, 0xc0, 0x13, 0x99, 0x3b, 0xcd, 0x7c, 0x9a, 0x3e, 0xc3, 0x97, 0x82, 0x3b, 0xd8, 0xc2, 0xbf, 0x3d, 0xcc, 0x52, 0x9f, 0xbd, 0xdb, 0x10, 0x75, 0xbe, 0x80, 0xad, 0xf0, 0x3d, 0xca, 0x42, 0xc1, 0x3d, 0xf8, 0xed, 0x92, 0x3d, 0xd1, 0x77, 0x83, 0x3e, 0xfa, 0x0f, 0x49, 0x3e, 0xa7, 0xec, 0x2e, 0xbe, 0x70, 0x4b, 0xf9, 0xbd, 0xce, 0x8f, 0x64, 0xbe, 0x6b, 0x29, 0x55, 0xbe, 0xaa, 0x05, 0x1f, 0x3e, 0x80, 0xdf, 0x97, 0x3b, 0x03, 0xec, 0x84, 0x3e, 0x6b, 0xc0, 0x9c, 0xbe, 0x90, 0xf9, 0x09, 0xbd, 0x56, 0xf0, 0xab, 0xbe, 0xa8, 0xbe, 0x0e, 0x3d, 0x00, 0x07, 0xbf, 0xbc, 0x98, 0xea, 0xab, 0x3d, 0x00, 0x25, 0x84, 0xbd, 0x00, 0xba, 0x61, 0x3b, 0xc2, 0xf3, 0x4a, 0x3e, 0x48, 0xf6, 0x95, 0x3d, 0x64, 0x46, 0x9d, 0xbd, 0xc5, 0xe9, 0x9b, 0xbe, 0x20, 0xe2, 0x97, 0xbd, 0x10, 0xd3, 0xb0, 0xbe, 0xb0, 0x01, 0x98, 0xbc, 0x05, 0x97, 0xa1, 0x3e, 0x9f, 0xdd, 0x91, 0x3e, 0x2f, 0xff, 0x8b, 0x3e, 0xca, 0xe0, 0x5f, 0x3e, 0xc4, 0xba, 0x24, 0xbe, 0xbc, 0x9c, 0xae, 0xbd, 0x34, 0x87, 0x87, 0xbd, 0xc0, 0x60, 0x06, 0xbd, 0x20, 0x48, 0x04, 0x3d, 0xba, 0x9d, 0xc0, 0xbe, 0x50, 0xe9, 0xde, 0xbc, 0x7f, 0xbb, 0x7a, 0xbe, 0xf6, 0x8f, 0x57, 0x3d, 0x9a, 0x1c, 0xc4, 0x3b, 0x70, 0x49, 0x2f, 0xbe, 0x79, 0x27, 0x11, 0x3c, 0x40, 0x0e, 0xeb, 0x3c, 0x6a, 0x34, 0xba, 0xbe, 0x73, 0x97, 0x54, 0x3e, 0xaf, 0x34, 0x72, 0x3e, 0xac, 0x8e, 0xd7, 0x3d, 0x09, 0xfe, 0x9f, 0x3e, 0xe3, 0x9d, 0x41, 0x3e, 0x94, 0x86, 0x0b, 0x3e, 0x86, 0x6e, 0xb0, 0x3b, 0xf7, 0x8d, 0x95, 0xbe, 0x22, 0x1c, 0x5e, 0xbe, 0xd0, 0x31, 0xa2, 0xbc, 0x90, 0x02, 0xb5, 0xbd, 0x9a, 0x2f, 0x6e, 0x3e, 0x10, 0xe5, 0x4f, 0xbe, 0x7c, 0xbc, 0x6b, 0x3e, 0x89, 0x67, 0xaf, 0xbe, 0x86, 0x78, 0x82, 0xbe, 0x87, 0x4d, 0x72, 0xbe, 0x06, 0xdd, 0x66, 0x3e, 0xe6, 0xb9, 0xa0, 0xbe, 0xfe, 0xe4, 0x04, 0xbe, 0x3e, 0xdc, 0x25, 0x3d, 0x14, 0x32, 0xa3, 0x3d, 0xf6, 0x1c, 0x59, 0x3e, 0x3c, 0xbd, 0xd9, 0x3e, 0xb4, 0x72, 0x5d, 0xbe, 0x66, 0xaa, 0xad, 0xbd, 0xd7, 0xbf, 0xd0, 0x3e, 0x00, 0xbc, 0x56, 0x3e, 0x00, 0x12, 0x2a, 0x3c, 0xcd, 0x26, 0x5d, 0x3e, 0x3e, 0xbe, 0x7a, 0x3e, 0x5d, 0x65, 0x5a, 0x3d, 0xdf, 0x47, 0xa8, 0x3e, 0xa9, 0xf6, 0x26, 0x3e, 0x1f, 0xc8, 0x6b, 0x3e, 0x40, 0x1d, 0xdd, 0x3b, 0x24, 0x65, 0x58, 0x3e, 0xcb, 0x3a, 0x84, 0x3e, 0x10, 0x82, 0xbc, 0x3e, 0x6b, 0x17, 0xa3, 0xbe, 0xe6, 0xd1, 0x78, 0x3e, 0xb0, 0x74, 0xae, 0xbd, 0x44, 0xa7, 0xb7, 0xbd, 0x97, 0x12, 0x99, 0xbe, 0x5b, 0x86, 0x32, 0x3e, 0xb0, 0xd0, 0xaa, 0x3e, 0xe5, 0x0f, 0xb4, 0xbd, 0x8c, 0x8f, 0x93, 0x3e, 0x48, 0x14, 0x2a, 0xbd, 0x17, 0x2d, 0x93, 0xbe, 0x13, 0xf1, 0x89, 0x3e, 0xa3, 0xc6, 0x51, 0xbe, 0x03, 0x8b, 0x91, 0xbe, 0x92, 0xc5, 0xaa, 0xbe, 0x41, 0xa8, 0x05, 0xbe, 0x20, 0xcc, 0xb2, 0x3d, 0x00, 0xa9, 0x33, 0xbb, 0xf8, 0x86, 0xaa, 0x3e, 0x50, 0xd8, 0x5d, 0xbe, 0x00, 0x83, 0x93, 0x3b, 0x08, 0xff, 0xa7, 0xbd, 0xee, 0x8f, 0x61, 0x3e, 0x0a, 0x4d, 0x38, 0x3e, 0xf5, 0xfc, 0x53, 0xbe, 0xa4, 0xc9, 0x7b, 0xbe, 0xe8, 0x69, 0xa0, 0xbe, 0x14, 0xcd, 0x36, 0xbe, 0xaa, 0xff, 0x7c, 0x3e, 0xbe, 0xb0, 0x40, 0xbe, 0x6f, 0x4d, 0x9e, 0x3e, 0xbc, 0x02, 0x62, 0xbd, 0x0d, 0xca, 0xa3, 0xbe, 0xf9, 0x27, 0x4a, 0xbe, 0xa5, 0x42, 0xab, 0x3e, 0x6b, 0x70, 0x9a, 0x3e, 0x6c, 0x0f, 0x90, 0xbd, 0x36, 0x2b, 0x97, 0x3e, 0x8a, 0x14, 0x1f, 0x3e, 0xc0, 0x06, 0x5b, 0xbd, 0xdc, 0x3c, 0x21, 0xbe, 0xa0, 0xd9, 0x91, 0xbd, 0x57, 0x00, 0x01, 0xbe, 0x60, 0x4a, 0x09, 0xbd, 0x31, 0xf9, 0x26, 0xbe, 0xf9, 0x18, 0xf3, 0xbd, 0x6a, 0xfd, 0xff, 0xff, 0x04, 0x00, 0x00, 0x00, 0x00, 0x02, 0x00, 0x00, 0xd1, 0xec, 0xbe, 0x3e, 0x54, 0x31, 0xfc, 0xbe, 0x8c, 0x3c, 0xb6, 0xbe, 0x90, 0x21, 0xc7, 0x3e, 0xf0, 0x4b, 0x75, 0x3e, 0xf5, 0x1b, 0x05, 0x3f, 0xd0, 0x24, 0x78, 0xbe, 0x73, 0x26, 0xb2, 0xbe, 0x74, 0x4d, 0xb8, 0x3e, 0xf5, 0x90, 0xbf, 0x3e, 0x12, 0x2f, 0x1f, 0x3e, 0x68, 0xf7, 0xb1, 0xbe, 0x10, 0x59, 0x41, 0xbe, 0x0f, 0xd7, 0x99, 0x3e, 0x66, 0x92, 0xe7, 0xbe, 0x05, 0xb5, 0xc6, 0xbe, 0x00, 0x97, 0x49, 0xbe, 0x5c, 0xbf, 0x9b, 0x3e, 0x00, 0x1f, 0x3b, 0x3c, 0xc0, 0x41, 0xe6, 0x3d, 0xd8, 0x84, 0xd5, 0xbe, 0x00, 0xe7, 0xa7, 0x3d, 0xd8, 0x5d, 0xb3, 0xbe, 0xc4, 0x8e, 0x86, 0xbe, 0x10, 0x84, 0xdf, 0xbe, 0xe0, 0xe2, 0x92, 0xbe, 0xa0, 0x17, 0x07, 0xbe, 0x58, 0x2b, 0x01, 0xbe, 0x20, 0x9e, 0x9f, 0x3d, 0xf0, 0xce, 0xb4, 0x3e, 0x04, 0xa6, 0xbb, 0xbe, 0x98, 0xc3, 0x5a, 0xbe, 0x48, 0x3b, 0x4f, 0x3d, 0x08, 0x27, 0x4f, 0x3e, 0x6e, 0xfc, 0xb7, 0xbe, 0x66, 0x24, 0x3a, 0xbe, 0xac, 0x3c, 0xd9, 0xbe, 0xf5, 0xbc, 0x88, 0x3e, 0x62, 0x36, 0x93, 0x3e, 0xb7, 0x7f, 0xfc, 0x3c, 0xea, 0x8d, 0x61, 0xbe, 0x5c, 0x50, 0x02, 0x3f, 0x96, 0x62, 0x9c, 0xbe, 0x06, 0xb4, 0xa4, 0xbe, 0x28, 0x01, 0x95, 0xbe, 0xb8, 0x1d, 0x1e, 0x3e, 0x78, 0x4b, 0x2a, 0xbe, 0x24, 0x41, 0x35, 0xbe, 0xb2, 0x48, 0x3a, 0x3e, 0xb0, 0xc0, 0xc6, 0x3d, 0xe0, 0xfe, 0x81, 0x3e, 0x00, 0xa6, 0x74, 0x3e, 0xf0, 0xcf, 0xa4, 0xbe, 0xf1, 0xc3, 0x98, 0x3e, 0x5f, 0x84, 0xe8, 0x3d, 0x31, 0xcc, 0xb0, 0x3e, 0x43, 0xa5, 0xc9, 0xbe, 0xfa, 0xf5, 0x53, 0x3e, 0x6d, 0x44, 0x8a, 0x3d, 0xea, 0x12, 0xa9, 0x3c, 0xc8, 0xe9, 0xf2, 0xbe, 0xe8, 0x04, 0xab, 0x3e, 0xa9, 0x40, 0xee, 0xbe, 0x4d, 0x5b, 0xd0, 0x3e, 0x1c, 0x86, 0xac, 0xbe, 0xd4, 0x6f, 0xdb, 0x3e, 0x8c, 0xb9, 0xd5, 0x3d, 0x8e, 0x80, 0xd7, 0xbe, 0xe0, 0xfe, 0x75, 0xbe, 0x3d, 0x68, 0x03, 0xbd, 0x5c, 0x8b, 0x16, 0x3e, 0xff, 0x7f, 0x09, 0x3e, 0x51, 0x92, 0x76, 0x3e, 0xc1, 0xa6, 0x1b, 0x3d, 0x6d, 0xd9, 0x06, 0xbd, 0xee, 0xa5, 0x8f, 0xbe, 0xc0, 0x5c, 0x02, 0xbe, 0x65, 0xed, 0x7a, 0x3e, 0xe9, 0xc3, 0x95, 0x3e, 0x84, 0xa1, 0xa5, 0xbe, 0x18, 0xe7, 0x85, 0x3e, 0x50, 0x04, 0x1f, 0x3e, 0x9b, 0x47, 0xdd, 0xbe, 0x46, 0xe6, 0x7e, 0x3d, 0x60, 0xda, 0xbf, 0xbe, 0xe7, 0x1a, 0x36, 0x3e, 0xa0, 0x70, 0x5a, 0xbe, 0x04, 0x97, 0xa7, 0xbe, 0x98, 0xed, 0x66, 0x3e, 0xff, 0x81, 0xce, 0x3d, 0x07, 0xcc, 0x77, 0x3e, 0x81, 0x6c, 0x9f, 0xbe, 0xa0, 0xb9, 0x69, 0xbd, 0xad, 0xf1, 0x7b, 0x3d, 0xbd, 0xb9, 0x85, 0x3e, 0xef, 0x94, 0xd4, 0x3e, 0x1c, 0xfb, 0xb6, 0x3e, 0x60, 0xd8, 0x27, 0xbe, 0x59, 0xc0, 0xd9, 0x3d, 0xab, 0x2b, 0xa0, 0xbd, 0x90, 0x79, 0xb9, 0x3d, 0xf6, 0xdd, 0xb8, 0xbe, 0x8f, 0xb6, 0xd4, 0xbe, 0x1c, 0x42, 0x85, 0xbe, 0x00, 0x2d, 0x12, 0x3e, 0x2f, 0x2f, 0xa0, 0xbd, 0x80, 0xcc, 0x9c, 0xbd, 0xac, 0x62, 0xdc, 0x3e, 0x88, 0x4a, 0x6b, 0xbe, 0x10, 0x85, 0xbd, 0x3d, 0xe0, 0xc8, 0x99, 0x3e, 0x50, 0x49, 0xa1, 0x3e, 0xb7, 0xba, 0xa5, 0xbe, 0xf4, 0x08, 0xa5, 0x3e, 0xa1, 0xb8, 0x9c, 0x3e, 0xe0, 0xb5, 0x79, 0x3e, 0x98, 0x37, 0x51, 0x3e, 0x3c, 0xce, 0x9e, 0x3d, 0x47, 0x7f, 0x95, 0x3e, 0x75, 0x51, 0x7f, 0x3e, 0xfb, 0xdf, 0x0f, 0xbe, 0xdd, 0x3e, 0xe2, 0x3e, 0x68, 0x62, 0xdc, 0x3e, 0x59, 0x6b, 0x85, 0xbe, 0xa0, 0xdc, 0x14, 0xbe, 0x37, 0xa3, 0x85, 0x3c, 0x1f, 0x1d, 0xc1, 0x3e, 0x77, 0xcc, 0x6a, 0xbe, 0x76, 0xff, 0xff, 0xff, 0x04, 0x00, 0x00, 0x00, 0x20, 0x00, 0x00, 0x00, 0x0b, 0x13, 0x47, 0xbf, 0x31, 0x68, 0x3b, 0xbf, 0x48, 0x28, 0x87, 0x3e, 0x6d, 0x97, 0x2f, 0xbf, 0x71, 0x7f, 0xcc, 0x3e, 0xa2, 0x06, 0x18, 0x3f, 0x02, 0xd9, 0x3f, 0xbf, 0xaf, 0x25, 0xd3, 0x3e, 0xa2, 0xff, 0xff, 0xff, 0x04, 0x00, 0x00, 0x00, 0x04, 0x00, 0x00, 0x00, 0xd1, 0x2b, 0x80, 0x3d, 0xb2, 0xff, 0xff, 0xff, 0x04, 0x00, 0x00, 0x00, 0x40, 0x00, 0x00, 0x00, 0x8f, 0x54, 0x58, 0x3d, 0x00, 0x00, 0x00, 0x00, 0xda, 0xaf, 0x2b, 0xbd, 0xf9, 0xcb, 0x47, 0xbd, 0x00, 0x00, 0x00, 0x00, 0xc5, 0x96, 0x8d, 0x3d, 0x2c, 0x51, 0x73, 0xbc, 0xf2, 0xf0, 0x4c, 0xbd, 0xce, 0x8a, 0x5c, 0x3d, 0x9e, 0x54, 0x9d, 0x3d, 0x1a, 0x0d, 0x1c, 0xbd, 0xed, 0x82, 0x10, 0xbd, 0x00, 0x00, 0x00, 0x00, 0xbb, 0x9c, 0xe3, 0xbc, 0xa6, 0xd9, 0x4f, 0xba, 0xa1, 0xc4, 0xbc, 0xbc, 0x00, 0x00, 0x06, 0x00, 0x08, 0x00, 0x04, 0x00, 0x06, 0x00, 0x00, 0x00, 0x04, 0x00, 0x00, 0x00, 0x20, 0x00, 0x00, 0x00, 0xef, 0x37, 0xd8, 0x3d, 0x00, 0x00, 0x00, 0x00, 0x50, 0x6e, 0x2d, 0x3d, 0x6f, 0xd2, 0x71, 0xbd, 0xb5, 0x7e, 0x73, 0x3d, 0x22, 0x8d, 0x78, 0x3d, 0x38, 0xc7, 0x4a, 0xbd, 0xf0, 0xc4, 0x73, 0x3d, 0xf4, 0xf9, 0xff, 0xff, 0xf8, 0xf9, 0xff, 0xff, 0x0f, 0x00, 0x00, 0x00, 0x4d, 0x4c, 0x49, 0x52, 0x20, 0x43, 0x6f, 0x6e, 0x76, 0x65, 0x72, 0x74, 0x65, 0x64, 0x2e, 0x00, 0x01, 0x00, 0x00, 0x00, 0x14, 0x00, 0x00, 0x00, 0x00, 0x00, 0x0e, 0x00, 0x18, 0x00, 0x14, 0x00, 0x10, 0x00, 0x0c, 0x00, 0x08, 0x00, 0x04, 0x00, 0x0e, 0x00, 0x00, 0x00, 0x14, 0x00, 0x00, 0x00, 0x1c, 0x00, 0x00, 0x00, 0x10, 0x01, 0x00, 0x00, 0x14, 0x01, 0x00, 0x00, 0x18, 0x01, 0x00, 0x00, 0x04, 0x00, 0x00, 0x00, 0x6d, 0x61, 0x69, 0x6e, 0x00, 0x00, 0x00, 0x00, 0x04, 0x00, 0x00, 0x00, 0xb8, 0x00, 0x00, 0x00, 0x70, 0x00, 0x00, 0x00, 0x38, 0x00, 0x00, 0x00, 0x04, 0x00, 0x00, 0x00, 0x66, 0xff, 0xff, 0xff, 0x10, 0x00, 0x00, 0x00, 0x00, 0x00, 0x00, 0x08, 0x0c, 0x00, 0x00, 0x00, 0x10, 0x00, 0x00, 0x00, 0x74, 0xfa, 0xff, 0xff, 0x01, 0x00, 0x00, 0x00, 0x0c, 0x00, 0x00, 0x00, 0x03, 0x00, 0x00, 0x00, 0x0b, 0x00, 0x00, 0x00, 0x04, 0x00, 0x00, 0x00, 0x03, 0x00, 0x00, 0x00, 0x96, 0xff, 0xff, 0xff, 0x10, 0x00, 0x00, 0x00, 0x00, 0x00, 0x00, 0x08, 0x10, 0x00, 0x00, 0x00, 0x14, 0x00, 0x00, 0x00, 0x86, 0xff, 0xff, 0xff, 0x00, 0x00, 0x00, 0x01, 0x01, 0x00, 0x00, 0x00, 0x0b, 0x00, 0x00, 0x00, 0x03, 0x00, 0x00, 0x00, 0x0a, 0x00, 0x00, 0x00, 0x05, 0x00, 0x00, 0x00, 0x01, 0x00, 0x00, 0x00, 0xca, 0xff, 0xff, 0xff, 0x10, 0x00, 0x00, 0x00, 0x00, 0x00, 0x00, 0x08, 0x10, 0x00, 0x00, 0x00, 0x14, 0x00, 0x00, 0x00, 0xba, 0xff, 0xff, 0xff, 0x00, 0x00, 0x00, 0x01, 0x01, 0x00, 0x00, 0x00, 0x0a, 0x00, 0x00, 0x00, 0x03, 0x00, 0x00, 0x00, 0x09, 0x00, 0x00, 0x00, 0x06, 0x00, 0x00, 0x00, 0x02, 0x00, 0x00, 0x00, 0x00, 0x00, 0x0e, 0x00, 0x16, 0x00, 0x00, 0x00, 0x10, 0x00, 0x0c, 0x00, 0x0b, 0x00, 0x04, 0x00, 0x0e, 0x00, 0x00, 0x00, 0x18, 0x00, 0x00, 0x00, 0x00, 0x00, 0x00, 0x08, 0x18, 0x00, 0x00, 0x00, 0x1c, 0x00, 0x00, 0x00, 0x00, 0x00, 0x06, 0x00, 0x08, 0x00, 0x07, 0x00, 0x06, 0x00, 0x00, 0x00, 0x00, 0x00, 0x00, 0x01, 0x01, 0x00, 0x00, 0x00, 0x09, 0x00, 0x00, 0x00, 0x03, 0x00, 0x00, 0x00, 0x00, 0x00, 0x00, 0x00, 0x07, 0x00, 0x00, 0x00, 0x08, 0x00, 0x00, 0x00, 0x01, 0x00, 0x00, 0x00, 0x0c, 0x00, 0x00, 0x00, 0x01, 0x00, 0x00, 0x00, 0x00, 0x00, 0x00, 0x00, 0x0d, 0x00, 0x00, 0x00, 0x80, 0x04, 0x00, 0x00, 0x2c, 0x04, 0x00, 0x00, 0xd8, 0x03, 0x00, 0x00, 0x9c, 0x03, 0x00, 0x00, 0x5c, 0x03, 0x00, 0x00, 0x1c, 0x03, 0x00, 0x00, 0xdc, 0x02, 0x00, 0x00, 0x90, 0x02, 0x00, 0x00, 0x2c, 0x02, 0x00, 0x00, 0x98, 0x01, 0x00, 0x00, 0xfc, 0x00, 0x00, 0x00, 0x60, 0x00, 0x00, 0x00, 0x04, 0x00, 0x00, 0x00, 0xca, 0xfb, 0xff, 0xff, 0x00, 0x00, 0x00, 0x01, 0x14, 0x00, 0x00, 0x00, 0x1c, 0x00, 0x00, 0x00, 0x1c, 0x00, 0x00, 0x00, 0x0d, 0x00, 0x00, 0x00, 0x34, 0x00, 0x00, 0x00, 0x02, 0x00, 0x00, 0x00, 0xff, 0xff, 0xff, 0xff, 0x01, 0x00, 0x00, 0x00, 0xb4, 0xfb, 0xff, 0xff, 0x1b, 0x00, 0x00, 0x00, 0x53, 0x74, 0x61, 0x74, 0x65, 0x66, 0x75, 0x6c, 0x50, 0x61, 0x72, 0x74, 0x69, 0x74, 0x69, 0x6f, 0x6e, 0x65, 0x64, 0x43, 0x61, 0x6c, 0x6c, 0x5f, 0x31, 0x3a, 0x30, 0x00, 0x02, 0x00, 0x00, 0x00, 0x01, 0x00, 0x00, 0x00, 0x01, 0x00, 0x00, 0x00, 0x22, 0xfc, 0xff, 0xff, 0x00, 0x00, 0x00, 0x01, 0x14, 0x00, 0x00, 0x00, 0x1c, 0x00, 0x00, 0x00, 0x1c, 0x00, 0x00, 0x00, 0x0c, 0x00, 0x00, 0x00, 0x74, 0x00, 0x00, 0x00, 0x02, 0x00, 0x00, 0x00, 0xff, 0xff, 0xff, 0xff, 0x08, 0x00, 0x00, 0x00, 0x0c, 0xfc, 0xff, 0xff, 0x58, 0x00, 0x00, 0x00, 0x73, 0x65, 0x71, 0x75, 0x65, 0x6e, 0x74, 0x69, 0x61, 0x6c, 0x5f, 0x31, 0x2f, 0x64, 0x65, 0x6e, 0x73, 0x65, 0x5f, 0x32, 0x5f, 0x31, 0x2f, 0x4d, 0x61, 0x74, 0x4d, 0x75, 0x6c, 0x3b, 0x73, 0x65, 0x71, 0x75, 0x65, 0x6e, 0x74, 0x69, 0x61, 0x6c, 0x5f, 0x31, 0x2f, 0x64, 0x65, 0x6e, 0x73, 0x65, 0x5f, 0x32, 0x5f, 0x31, 0x2f, 0x52, 0x65, 0x6c, 0x75, 0x3b, 0x73, 0x65, 0x71, 0x75, 0x65, 0x6e, 0x74, 0x69, 0x61, 0x6c, 0x5f, 0x31, 0x2f, 0x64, 0x65, 0x6e, 0x73, 0x65, 0x5f, 0x32, 0x5f, 0x31, 0x2f, 0x42, 0x69, 0x61, 0x73, 0x41, 0x64, 0x64, 0x00, 0x00, 0x00, 0x00, 0x02, 0x00, 0x00, 0x00, 0x01, 0x00, 0x00, 0x00, 0x08, 0x00, 0x00, 0x00, 0xba, 0xfc, 0xff, 0xff, 0x00, 0x00, 0x00, 0x01, 0x14, 0x00, 0x00, 0x00, 0x1c, 0x00, 0x00, 0x00, 0x1c, 0x00, 0x00, 0x00, 0x0b, 0x00, 0x00, 0x00, 0x74, 0x00, 0x00, 0x00, 0x02, 0x00, 0x00, 0x00, 0xff, 0xff, 0xff, 0xff, 0x10, 0x00, 0x00, 0x00, 0xa4, 0xfc, 0xff, 0xff, 0x58, 0x00, 0x00, 0x00, 0x73, 0x65, 0x71, 0x75, 0x65, 0x6e, 0x74, 0x69, 0x61, 0x6c, 0x5f, 0x31, 0x2f, 0x64, 0x65, 0x6e, 0x73, 0x65, 0x5f, 0x31, 0x5f, 0x32, 0x2f, 0x4d, 0x61, 0x74, 0x4d, 0x75, 0x6c, 0x3b, 0x73, 0x65, 0x71, 0x75, 0x65, 0x6e, 0x74, 0x69, 0x61, 0x6c, 0x5f, 0x31, 0x2f, 0x64, 0x65, 0x6e, 0x73, 0x65, 0x5f, 0x31, 0x5f, 0x32, 0x2f, 0x52, 0x65, 0x6c, 0x75, 0x3b, 0x73, 0x65, 0x71, 0x75, 0x65, 0x6e, 0x74, 0x69, 0x61, 0x6c, 0x5f, 0x31, 0x2f, 0x64, 0x65, 0x6e, 0x73, 0x65, 0x5f, 0x31, 0x5f, 0x32, 0x2f, 0x42, 0x69, 0x61, 0x73, 0x41, 0x64, 0x64, 0x00, 0x00, 0x00, 0x00, 0x02, 0x00, 0x00, 0x00, 0x01, 0x00, 0x00, 0x00, 0x10, 0x00, 0x00, 0x00, 0x52, 0xfd, 0xff, 0xff, 0x00, 0x00, 0x00, 0x01, 0x14, 0x00, 0x00, 0x00, 0x1c, 0x00, 0x00, 0x00, 0x1c, 0x00, 0x00, 0x00, 0x0a, 0x00, 0x00, 0x00, 0x6c, 0x00, 0x00, 0x00, 0x02, 0x00, 0x00, 0x00, 0xff, 0xff, 0xff, 0xff, 0x20, 0x00, 0x00, 0x00, 0x3c, 0xfd, 0xff, 0xff, 0x52, 0x00, 0x00, 0x00, 0x73, 0x65, 0x71, 0x75, 0x65, 0x6e, 0x74, 0x69, 0x61, 0x6c, 0x5f, 0x31, 0x2f, 0x64, 0x65, 0x6e, 0x73, 0x65, 0x5f, 0x31, 0x2f, 0x4d, 0x61, 0x74, 0x4d, 0x75, 0x6c, 0x3b, 0x73, 0x65, 0x71, 0x75, 0x65, 0x6e, 0x74, 0x69, 0x61, 0x6c, 0x5f, 0x31, 0x2f, 0x64, 0x65, 0x6e, 0x73, 0x65, 0x5f, 0x31, 0x2f, 0x52, 0x65, 0x6c, 0x75, 0x3b, 0x73, 0x65, 0x71, 0x75, 0x65, 0x6e, 0x74, 0x69, 0x61, 0x6c, 0x5f, 0x31, 0x2f, 0x64, 0x65, 0x6e, 0x73, 0x65, 0x5f, 0x31, 0x2f, 0x42, 0x69, 0x61, 0x73, 0x41, 0x64, 0x64, 0x00, 0x00, 0x02, 0x00, 0x00, 0x00, 0x01, 0x00, 0x00, 0x00, 0x20, 0x00, 0x00, 0x00, 0x32, 0xfe, 0xff, 0xff, 0x00, 0x00, 0x00, 0x01, 0x10, 0x00, 0x00, 0x00, 0x10, 0x00, 0x00, 0x00, 0x09, 0x00, 0x00, 0x00, 0x44, 0x00, 0x00, 0x00, 0xbc, 0xfd, 0xff, 0xff, 0x36, 0x00, 0x00, 0x00, 0x73, 0x65, 0x71, 0x75, 0x65, 0x6e, 0x74, 0x69, 0x61, 0x6c, 0x5f, 0x31, 0x2f, 0x64, 0x65, 0x6e, 0x73, 0x65, 0x5f, 0x31, 0x2f, 0x52, 0x65, 0x6c, 0x75, 0x3b, 0x73, 0x65, 0x71, 0x75, 0x65, 0x6e, 0x74, 0x69, 0x61, 0x6c, 0x5f, 0x31, 0x2f, 0x64, 0x65, 0x6e, 0x73, 0x65, 0x5f, 0x31, 0x2f, 0x42, 0x69, 0x61, 0x73, 0x41, 0x64, 0x64, 0x00, 0x00, 0x01, 0x00, 0x00, 0x00, 0x20, 0x00, 0x00, 0x00, 0x92, 0xfe, 0xff, 0xff, 0x00, 0x00, 0x00, 0x01, 0x10, 0x00, 0x00, 0x00, 0x10, 0x00, 0x00, 0x00, 0x08, 0x00, 0x00, 0x00, 0x28, 0x00, 0x00, 0x00, 0x1c, 0xfe, 0xff, 0xff, 0x1b, 0x00, 0x00, 0x00, 0x73, 0x65, 0x71, 0x75, 0x65, 0x6e, 0x74, 0x69, 0x61, 0x6c, 0x5f, 0x31, 0x2f, 0x64, 0x65, 0x6e, 0x73, 0x65, 0x5f, 0x31, 0x2f, 0x4d, 0x61, 0x74, 0x4d, 0x75, 0x6c, 0x00, 0x02, 0x00, 0x00, 0x00, 0x20, 0x00, 0x00, 0x00, 0x01, 0x00, 0x00, 0x00, 0xda, 0xfe, 0xff, 0xff, 0x00, 0x00, 0x00, 0x01, 0x10, 0x00, 0x00, 0x00, 0x10, 0x00, 0x00, 0x00, 0x07, 0x00, 0x00, 0x00, 0x1c, 0x00, 0x00, 0x00, 0x64, 0xfe, 0xff, 0xff, 0x0f, 0x00, 0x00, 0x00, 0x61, 0x72, 0x69, 0x74, 0x68, 0x2e, 0x63, 0x6f, 0x6e, 0x73, 0x74, 0x61, 0x6e, 0x74, 0x35, 0x00, 0x02, 0x00, 0x00, 0x00, 0x10, 0x00, 0x00, 0x00, 0x20, 0x00, 0x00, 0x00, 0x16, 0xff, 0xff, 0xff, 0x00, 0x00, 0x00, 0x01, 0x10, 0x00, 0x00, 0x00, 0x10, 0x00, 0x00, 0x00, 0x06, 0x00, 0x00, 0x00, 0x1c, 0x00, 0x00, 0x00, 0xa0, 0xfe, 0xff, 0xff, 0x0f, 0x00, 0x00, 0x00, 0x61, 0x72, 0x69, 0x74, 0x68, 0x2e, 0x63, 0x6f, 0x6e, 0x73, 0x74, 0x61, 0x6e, 0x74, 0x34, 0x00, 0x02, 0x00, 0x00, 0x00, 0x08, 0x00, 0x00, 0x00, 0x10, 0x00, 0x00, 0x00, 0x52, 0xff, 0xff, 0xff, 0x00, 0x00, 0x00, 0x01, 0x10, 0x00, 0x00, 0x00, 0x10, 0x00, 0x00, 0x00, 0x05, 0x00, 0x00, 0x00, 0x1c, 0x00, 0x00, 0x00, 0xdc, 0xfe, 0xff, 0xff, 0x0f, 0x00, 0x00, 0x00, 0x61, 0x72, 0x69, 0x74, 0x68, 0x2e, 0x63, 0x6f, 0x6e, 0x73, 0x74, 0x61, 0x6e, 0x74, 0x33, 0x00, 0x02, 0x00, 0x00, 0x00, 0x01, 0x00, 0x00, 0x00, 0x08, 0x00, 0x00, 0x00, 0x8e, 0xff, 0xff, 0xff, 0x00, 0x00, 0x00, 0x01, 0x10, 0x00, 0x00, 0x00, 0x10, 0x00, 0x00, 0x00, 0x04, 0x00, 0x00, 0x00, 0x1c, 0x00, 0x00, 0x00, 0x18, 0xff, 0xff, 0xff, 0x0f, 0x00, 0x00, 0x00, 0x61, 0x72, 0x69, 0x74, 0x68, 0x2e, 0x63, 0x6f, 0x6e, 0x73, 0x74, 0x61, 0x6e, 0x74, 0x32, 0x00, 0x01, 0x00, 0x00, 0x00, 0x01, 0x00, 0x00, 0x00, 0xc6, 0xff, 0xff, 0xff, 0x00, 0x00, 0x00, 0x01, 0x10, 0x00, 0x00, 0x00, 0x10, 0x00, 0x00, 0x00, 0x03, 0x00, 0x00, 0x00, 0x1c, 0x00, 0x00, 0x00, 0x50, 0xff, 0xff, 0xff, 0x0f, 0x00, 0x00, 0x00, 0x61, 0x72, 0x69, 0x74, 0x68, 0x2e, 0x63, 0x6f, 0x6e, 0x73, 0x74, 0x61, 0x6e, 0x74, 0x31, 0x00, 0x01, 0x00, 0x00, 0x00, 0x10, 0x00, 0x00, 0x00, 0x00, 0x00, 0x16, 0x00, 0x18, 0x00, 0x14, 0x00, 0x00, 0x00, 0x10, 0x00, 0x0c, 0x00, 0x08, 0x00, 0x00, 0x00, 0x00, 0x00, 0x00, 0x00, 0x07, 0x00, 0x16, 0x00, 0x00, 0x00, 0x00, 0x00, 0x00, 0x01, 0x10, 0x00, 0x00, 0x00, 0x10, 0x00, 0x00, 0x00, 0x02, 0x00, 0x00, 0x00, 0x1c, 0x00, 0x00, 0x00, 0xa0, 0xff, 0xff, 0xff, 0x0e, 0x00, 0x00, 0x00, 0x61, 0x72, 0x69, 0x74, 0x68, 0x2e, 0x63, 0x6f, 0x6e, 0x73, 0x74, 0x61, 0x6e, 0x74, 0x00, 0x00, 0x01, 0x00, 0x00, 0x00, 0x08, 0x00, 0x00, 0x00, 0x00, 0x00, 0x16, 0x00, 0x1c, 0x00, 0x18, 0x00, 0x00, 0x00, 0x14, 0x00, 0x10, 0x00, 0x0c, 0x00, 0x00, 0x00, 0x00, 0x00, 0x08, 0x00, 0x07, 0x00, 0x16, 0x00, 0x00, 0x00, 0x00, 0x00, 0x00, 0x01, 0x14, 0x00, 0x00, 0x00, 0x20, 0x00, 0x00, 0x00, 0x20, 0x00, 0x00, 0x00, 0x01, 0x00, 0x00, 0x00, 0x3c, 0x00, 0x00, 0x00, 0x02, 0x00, 0x00, 0x00, 0xff, 0xff, 0xff, 0xff, 0x01, 0x00, 0x00, 0x00, 0x04, 0x00, 0x04, 0x00, 0x04, 0x00, 0x00, 0x00, 0x1e, 0x00, 0x00, 0x00, 0x73, 0x65, 0x72, 0x76, 0x69, 0x6e, 0x67, 0x5f, 0x64, 0x65, 0x66, 0x61, 0x75, 0x6c, 0x74, 0x5f, 0x6b, 0x65, 0x72, 0x61, 0x73, 0x5f, 0x74, 0x65, 0x6e, 0x73, 0x6f, 0x72, 0x3a, 0x30, 0x00, 0x00, 0x02, 0x00, 0x00, 0x00, 0x01, 0x00, 0x00, 0x00, 0x01, 0x00, 0x00, 0x00, 0x01, 0x00, 0x00, 0x00, 0x10, 0x00, 0x00, 0x00, 0x0c, 0x00, 0x0c, 0x00, 0x0b, 0x00, 0x00, 0x00, 0x00, 0x00, 0x04, 0x00, 0x0c, 0x00, 0x00, 0x00, 0x09, 0x00, 0x00, 0x00, 0x00, 0x00, 0x00, 0x09 };